{
  "vocab": {
    "0": "<PAD>",
    "1": "<UNK>",
    "2": "<BOS>",
    "3": "<EOS>",
    "4": " ",
    "5": "\n",
    "6": "!",
    "7": "'",
    "8": ",",
    "9": "-",
    "10": ".",
    "11": ":",
    "12": "?",
    "13": "A",
    "14": "B",
    "15": "C",
    "16": "D",
    "17": "E",
    "18": "I",
    "19": "J",
    "20": "L",
    "21": "M",
    "22": "P",
    "23": "Q",
    "24": "R",
    "25": "T",
    "26": "U",
    "27": "a",
    "28": "b",
    "29": "c",
    "30": "d",
    "31": "e",
    "32": "f",
    "33": "g",
    "34": "h",
    "35": "i",
    "36": "j",
    "37": "k",
    "38": "l",
    "39": "m",
    "40": "n",
    "41": "o",
    "42": "p",
    "43": "q",
    "44": "r",
    "45": "s",
    "46": "t",
    "47": "u",
    "48": "v",
    "49": "w",
    "50": "x",
    "51": "y",
    "52": "z",
    "53": "À",
    "54": "à",
    "55": "â",
    "56": "è",
    "57": "é",
    "58": "ê",
    "59": "î",
    "60": "ô",
    "61": "Il",
    "62": "La",
    "63": "Le",
    "64": "Qu",
    "65": "Un",
    "66": "ab",
    "67": "ac",
    "68": "ad",
    "69": "al",
    "70": "an",
    "71": "ap",
    "72": "ar",
    "73": "at",
    "74": "au",
    "75": "bu",
    "76": "ce",
    "77": "ch",
    "78": "ci",
    "79": "co",
    "80": "cu",
    "81": "de",
    "82": "di",
    "83": "do",
    "84": "du",
    "85": "dé",
    "86": "el",
    "87": "en",
    "88": "er",
    "89": "es",
    "90": "et",
    "91": "ex",
    "92": "ez",
    "93": "fa",
    "94": "ff",
    "95": "fi",
    "96": "ga",
    "97": "ge",
    "98": "gi",
    "99": "gr",
    "100": "ie",
    "101": "il",
    "102": "im",
    "103": "in",
    "104": "ir",
    "105": "is",
    "106": "it",
    "107": "iv",
    "108": "je",
    "109": "la",
    "110": "le",
    "111": "li",
    "112": "lu",
    "113": "ma",
    "114": "me",
    "115": "mo",
    "116": "mp",
    "117": "mé",
    "118": "ne",
    "119": "no",
    "120": "nu",
    "121": "ob",
    "122": "on",
    "123": "op",
    "124": "or",
    "125": "ou",
    "126": "pa",
    "127": "pe",
    "128": "pl",
    "129": "po",
    "130": "pr",
    "131": "pu",
    "132": "qu",
    "133": "ra",
    "134": "re",
    "135": "ri",
    "136": "rè",
    "137": "ré",
    "138": "sa",
    "139": "se",
    "140": "si",
    "141": "st",
    "142": "su",
    "143": "sy",
    "144": "sé",
    "145": "ta",
    "146": "te",
    "147": "th",
    "148": "ti",
    "149": "tr",
    "150": "ts",
    "151": "tu",
    "152": "té",
    "153": "un",
    "154": "ur",
    "155": "us",
    "156": "ut",
    "157": "ux",
    "158": "va",
    "159": "ve",
    "160": "vo",
    "161": "ès",
    "162": "éc",
    "163": "ér",
    "164": "API",
    "165": "Com",
    "166": "Les",
    "167": "age",
    "168": "ale",
    "169": "ali",
    "170": "ans",
    "171": "ass",
    "172": "aut",
    "173": "aux",
    "174": "ble",
    "175": "bug",
    "176": "cer",
    "177": "ces",
    "178": "cis",
    "179": "cla",
    "180": "com",
    "181": "con",
    "182": "cor",
    "183": "cri",
    "184": "der",
    "185": "des",
    "186": "dre",
    "187": "dur",
    "188": "els",
    "189": "ent",
    "190": "est",
    "191": "fac",
    "192": "fin",
    "193": "for",
    "194": "ges",
    "195": "gén",
    "196": "ide",
    "197": "idé",
    "198": "ien",
    "199": "ils",
    "200": "ima",
    "201": "int",
    "202": "ire",
    "203": "ite",
    "204": "ité",
    "205": "les",
    "206": "lim",
    "207": "lis",
    "208": "mes",
    "209": "met",
    "210": "mot",
    "211": "oci",
    "212": "oli",
    "213": "oma",
    "214": "oni",
    "215": "onn",
    "216": "orm",
    "217": "our",
    "218": "pac",
    "219": "par",
    "220": "pas",
    "221": "per",
    "222": "pli",
    "223": "por",
    "224": "pro",
    "225": "pré",
    "226": "que",
    "227": "qui",
    "228": "quo",
    "229": "rap",
    "230": "res",
    "231": "rig",
    "232": "rég",
    "233": "san",
    "234": "ser",
    "235": "ses",
    "236": "sez",
    "237": "son",
    "238": "sou",
    "239": "ssi",
    "240": "sur",
    "241": "tan",
    "242": "ter",
    "243": "tes",
    "244": "tex",
    "245": "tre",
    "246": "tée",
    "247": "une",
    "248": "uti",
    "249": "vas",
    "250": "vos",
    "251": "édu",
    "252": "ées",
    "253": "émo",
    "254": "éri",
    "255": "Elle",
    "256": "Pour",
    "257": "able",
    "258": "actu",
    "259": "adap",
    "260": "adul",
    "261": "aide",
    "262": "avec",
    "263": "bien",
    "264": "bles",
    "265": "chan",
    "266": "conc",
    "267": "cons",
    "268": "cont",
    "269": "ctif",
    "270": "dans",
    "271": "donn",
    "272": "elle",
    "273": "elli",
    "274": "ence",
    "275": "ensi",
    "276": "enti",
    "277": "erre",
    "278": "faut",
    "279": "form",
    "280": "huma",
    "281": "ines",
    "282": "ions",
    "283": "ites",
    "284": "jets",
    "285": "leur",
    "286": "lire",
    "287": "logi",
    "288": "mais",
    "289": "meil",
    "290": "ment",
    "291": "modè",
    "292": "mots",
    "293": "oupe",
    "294": "pass",
    "295": "peti",
    "296": "plus",
    "297": "pons",
    "298": "pour",
    "299": "pres",
    "300": "près",
    "301": "péri",
    "302": "quer",
    "303": "ques",
    "304": "repo",
    "305": "ress",
    "306": "rédu",
    "307": "régu",
    "308": "sens",
    "309": "serv",
    "310": "sont",
    "311": "tech",
    "312": "tent",
    "313": "test",
    "314": "tion",
    "315": "uler",
    "316": "vari",
    "317": "èmes",
    "318": "être",
    "319": "aider",
    "320": "ation",
    "321": "atten",
    "322": "aussi",
    "323": "clima",
    "324": "comme",
    "325": "ction",
    "326": "ctive",
    "327": "elles",
    "328": "ement",
    "329": "envir",
    "330": "gramm",
    "331": "inter",
    "332": "isent",
    "333": "issan",
    "334": "issez",
    "335": "leurs",
    "336": "mieux",
    "337": "obten",
    "338": "parti",
    "339": "passe",
    "340": "possè",
    "341": "probl",
    "342": "produ",
    "343": "selon",
    "344": "sions",
    "345": "sécur",
    "346": "tests",
    "347": "texte",
    "348": "tionn",
    "349": "tions",
    "350": "tique",
    "351": "trans",
    "352": "Python",
    "353": "Quelle",
    "354": "appren",
    "355": "associ",
    "356": "ations",
    "357": "besoin",
    "358": "cation",
    "359": "corpus",
    "360": "entraî",
    "361": "espace",
    "362": "expéri",
    "363": "généra",
    "364": "heures",
    "365": "humain",
    "366": "isoler",
    "367": "lement",
    "368": "modèle",
    "369": "nombre",
    "370": "partir",
    "371": "permet",
    "372": "plutôt",
    "373": "régula",
    "374": "suivre",
    "375": "tement",
    "376": "tâches",
    "377": "unique",
    "378": "utiles",
    "379": "utilis",
    "380": "vérifi",
    "381": "Bonjour",
    "382": "Comment",
    "383": "actions",
    "384": "attendu",
    "385": "comment",
    "386": "communi",
    "387": "constru",
    "388": "données",
    "389": "dévelop",
    "390": "langage",
    "391": "partici",
    "392": "peuvent",
    "393": "prendre",
    "394": "projets",
    "395": "précise",
    "396": "présent",
    "397": "qualité",
    "398": "réduire",
    "399": "réponse",
    "400": "sommeil",
    "401": "Pourquoi",
    "402": "automati",
    "403": "fication",
    "404": "fossiles",
    "405": "importan",
    "406": "logiques",
    "407": "machines",
    "408": "missions",
    "409": "programm",
    "410": "réponses",
    "411": "spatiale",
    "412": "systèmes",
    "413": "énergies",
    "414": "apprendre",
    "415": "mentation",
    "416": "notamment",
    "417": "personnes",
    "418": "éducation",
    "419": "changement",
    "420": "climatique",
    "421": "comprendre",
    "422": "connaissan",
    "423": "fonctionne",
    "424": "régularité",
    "425": "automatique",
    "426": "automatisés",
    "427": "exploration",
    "428": "reconnaître",
    "429": "artificielle",
    "430": "entraînement",
    "431": "intelligence",
    "432": "modification",
    "433": "apprentissage",
    "434": "connaissances"
  },
  "vocab_inv": {
    "<PAD>": 0,
    "<UNK>": 1,
    "<BOS>": 2,
    "<EOS>": 3,
    " ": 4,
    "\n": 5,
    "!": 6,
    "'": 7,
    ",": 8,
    "-": 9,
    ".": 10,
    ":": 11,
    "?": 12,
    "A": 13,
    "B": 14,
    "C": 15,
    "D": 16,
    "E": 17,
    "I": 18,
    "J": 19,
    "L": 20,
    "M": 21,
    "P": 22,
    "Q": 23,
    "R": 24,
    "T": 25,
    "U": 26,
    "a": 27,
    "b": 28,
    "c": 29,
    "d": 30,
    "e": 31,
    "f": 32,
    "g": 33,
    "h": 34,
    "i": 35,
    "j": 36,
    "k": 37,
    "l": 38,
    "m": 39,
    "n": 40,
    "o": 41,
    "p": 42,
    "q": 43,
    "r": 44,
    "s": 45,
    "t": 46,
    "u": 47,
    "v": 48,
    "w": 49,
    "x": 50,
    "y": 51,
    "z": 52,
    "À": 53,
    "à": 54,
    "â": 55,
    "è": 56,
    "é": 57,
    "ê": 58,
    "î": 59,
    "ô": 60,
    "Il": 61,
    "La": 62,
    "Le": 63,
    "Qu": 64,
    "Un": 65,
    "ab": 66,
    "ac": 67,
    "ad": 68,
    "al": 69,
    "an": 70,
    "ap": 71,
    "ar": 72,
    "at": 73,
    "au": 74,
    "bu": 75,
    "ce": 76,
    "ch": 77,
    "ci": 78,
    "co": 79,
    "cu": 80,
    "de": 81,
    "di": 82,
    "do": 83,
    "du": 84,
    "dé": 85,
    "el": 86,
    "en": 87,
    "er": 88,
    "es": 89,
    "et": 90,
    "ex": 91,
    "ez": 92,
    "fa": 93,
    "ff": 94,
    "fi": 95,
    "ga": 96,
    "ge": 97,
    "gi": 98,
    "gr": 99,
    "ie": 100,
    "il": 101,
    "im": 102,
    "in": 103,
    "ir": 104,
    "is": 105,
    "it": 106,
    "iv": 107,
    "je": 108,
    "la": 109,
    "le": 110,
    "li": 111,
    "lu": 112,
    "ma": 113,
    "me": 114,
    "mo": 115,
    "mp": 116,
    "mé": 117,
    "ne": 118,
    "no": 119,
    "nu": 120,
    "ob": 121,
    "on": 122,
    "op": 123,
    "or": 124,
    "ou": 125,
    "pa": 126,
    "pe": 127,
    "pl": 128,
    "po": 129,
    "pr": 130,
    "pu": 131,
    "qu": 132,
    "ra": 133,
    "re": 134,
    "ri": 135,
    "rè": 136,
    "ré": 137,
    "sa": 138,
    "se": 139,
    "si": 140,
    "st": 141,
    "su": 142,
    "sy": 143,
    "sé": 144,
    "ta": 145,
    "te": 146,
    "th": 147,
    "ti": 148,
    "tr": 149,
    "ts": 150,
    "tu": 151,
    "té": 152,
    "un": 153,
    "ur": 154,
    "us": 155,
    "ut": 156,
    "ux": 157,
    "va": 158,
    "ve": 159,
    "vo": 160,
    "ès": 161,
    "éc": 162,
    "ér": 163,
    "API": 164,
    "Com": 165,
    "Les": 166,
    "age": 167,
    "ale": 168,
    "ali": 169,
    "ans": 170,
    "ass": 171,
    "aut": 172,
    "aux": 173,
    "ble": 174,
    "bug": 175,
    "cer": 176,
    "ces": 177,
    "cis": 178,
    "cla": 179,
    "com": 180,
    "con": 181,
    "cor": 182,
    "cri": 183,
    "der": 184,
    "des": 185,
    "dre": 186,
    "dur": 187,
    "els": 188,
    "ent": 189,
    "est": 190,
    "fac": 191,
    "fin": 192,
    "for": 193,
    "ges": 194,
    "gén": 195,
    "ide": 196,
    "idé": 197,
    "ien": 198,
    "ils": 199,
    "ima": 200,
    "int": 201,
    "ire": 202,
    "ite": 203,
    "ité": 204,
    "les": 205,
    "lim": 206,
    "lis": 207,
    "mes": 208,
    "met": 209,
    "mot": 210,
    "oci": 211,
    "oli": 212,
    "oma": 213,
    "oni": 214,
    "onn": 215,
    "orm": 216,
    "our": 217,
    "pac": 218,
    "par": 219,
    "pas": 220,
    "per": 221,
    "pli": 222,
    "por": 223,
    "pro": 224,
    "pré": 225,
    "que": 226,
    "qui": 227,
    "quo": 228,
    "rap": 229,
    "res": 230,
    "rig": 231,
    "rég": 232,
    "san": 233,
    "ser": 234,
    "ses": 235,
    "sez": 236,
    "son": 237,
    "sou": 238,
    "ssi": 239,
    "sur": 240,
    "tan": 241,
    "ter": 242,
    "tes": 243,
    "tex": 244,
    "tre": 245,
    "tée": 246,
    "une": 247,
    "uti": 248,
    "vas": 249,
    "vos": 250,
    "édu": 251,
    "ées": 252,
    "émo": 253,
    "éri": 254,
    "Elle": 255,
    "Pour": 256,
    "able": 257,
    "actu": 258,
    "adap": 259,
    "adul": 260,
    "aide": 261,
    "avec": 262,
    "bien": 263,
    "bles": 264,
    "chan": 265,
    "conc": 266,
    "cons": 267,
    "cont": 268,
    "ctif": 269,
    "dans": 270,
    "donn": 271,
    "elle": 272,
    "elli": 273,
    "ence": 274,
    "ensi": 275,
    "enti": 276,
    "erre": 277,
    "faut": 278,
    "form": 279,
    "huma": 280,
    "ines": 281,
    "ions": 282,
    "ites": 283,
    "jets": 284,
    "leur": 285,
    "lire": 286,
    "logi": 287,
    "mais": 288,
    "meil": 289,
    "ment": 290,
    "modè": 291,
    "mots": 292,
    "oupe": 293,
    "pass": 294,
    "peti": 295,
    "plus": 296,
    "pons": 297,
    "pour": 298,
    "pres": 299,
    "près": 300,
    "péri": 301,
    "quer": 302,
    "ques": 303,
    "repo": 304,
    "ress": 305,
    "rédu": 306,
    "régu": 307,
    "sens": 308,
    "serv": 309,
    "sont": 310,
    "tech": 311,
    "tent": 312,
    "test": 313,
    "tion": 314,
    "uler": 315,
    "vari": 316,
    "èmes": 317,
    "être": 318,
    "aider": 319,
    "ation": 320,
    "atten": 321,
    "aussi": 322,
    "clima": 323,
    "comme": 324,
    "ction": 325,
    "ctive": 326,
    "elles": 327,
    "ement": 328,
    "envir": 329,
    "gramm": 330,
    "inter": 331,
    "isent": 332,
    "issan": 333,
    "issez": 334,
    "leurs": 335,
    "mieux": 336,
    "obten": 337,
    "parti": 338,
    "passe": 339,
    "possè": 340,
    "probl": 341,
    "produ": 342,
    "selon": 343,
    "sions": 344,
    "sécur": 345,
    "tests": 346,
    "texte": 347,
    "tionn": 348,
    "tions": 349,
    "tique": 350,
    "trans": 351,
    "Python": 352,
    "Quelle": 353,
    "appren": 354,
    "associ": 355,
    "ations": 356,
    "besoin": 357,
    "cation": 358,
    "corpus": 359,
    "entraî": 360,
    "espace": 361,
    "expéri": 362,
    "généra": 363,
    "heures": 364,
    "humain": 365,
    "isoler": 366,
    "lement": 367,
    "modèle": 368,
    "nombre": 369,
    "partir": 370,
    "permet": 371,
    "plutôt": 372,
    "régula": 373,
    "suivre": 374,
    "tement": 375,
    "tâches": 376,
    "unique": 377,
    "utiles": 378,
    "utilis": 379,
    "vérifi": 380,
    "Bonjour": 381,
    "Comment": 382,
    "actions": 383,
    "attendu": 384,
    "comment": 385,
    "communi": 386,
    "constru": 387,
    "données": 388,
    "dévelop": 389,
    "langage": 390,
    "partici": 391,
    "peuvent": 392,
    "prendre": 393,
    "projets": 394,
    "précise": 395,
    "présent": 396,
    "qualité": 397,
    "réduire": 398,
    "réponse": 399,
    "sommeil": 400,
    "Pourquoi": 401,
    "automati": 402,
    "fication": 403,
    "fossiles": 404,
    "importan": 405,
    "logiques": 406,
    "machines": 407,
    "missions": 408,
    "programm": 409,
    "réponses": 410,
    "spatiale": 411,
    "systèmes": 412,
    "énergies": 413,
    "apprendre": 414,
    "mentation": 415,
    "notamment": 416,
    "personnes": 417,
    "éducation": 418,
    "changement": 419,
    "climatique": 420,
    "comprendre": 421,
    "connaissan": 422,
    "fonctionne": 423,
    "régularité": 424,
    "automatique": 425,
    "automatisés": 426,
    "exploration": 427,
    "reconnaître": 428,
    "artificielle": 429,
    "entraînement": 430,
    "intelligence": 431,
    "modification": 432,
    "apprentissage": 433,
    "connaissances": 434
  },
  "merges": [
    [
      "e",
      "s"
    ],
    [
      "e",
      "n"
    ],
    [
      "o",
      "n"
    ],
    [
      "t",
      "i"
    ],
    [
      "d",
      "e"
    ],
    [
      "l",
      "e"
    ],
    [
      "en",
      "t"
    ],
    [
      "q",
      "u"
    ],
    [
      "r",
      "e"
    ],
    [
      "p",
      "r"
    ],
    [
      "e",
      "t"
    ],
    [
      "u",
      "n"
    ],
    [
      "e",
      "r"
    ],
    [
      "l",
      "a"
    ],
    [
      "ti",
      "on"
    ],
    [
      "o",
      "m"
    ],
    [
      "i",
      "s"
    ],
    [
      "e",
      "l"
    ],
    [
      "m",
      "ent"
    ],
    [
      "i",
      "n"
    ],
    [
      "l",
      "i"
    ],
    [
      "p",
      "a"
    ],
    [
      "l",
      "es"
    ],
    [
      "a",
      "n"
    ],
    [
      "o",
      "r"
    ],
    [
      "u",
      "r"
    ],
    [
      "a",
      "u"
    ],
    [
      "qu",
      "e"
    ],
    [
      "d",
      "es"
    ],
    [
      "c",
      "e"
    ],
    [
      "d",
      "u"
    ],
    [
      "i",
      "t"
    ],
    [
      "es",
      "t"
    ],
    [
      "a",
      "tion"
    ],
    [
      "s",
      "s"
    ],
    [
      "r",
      "é"
    ],
    [
      "on",
      "n"
    ],
    [
      "m",
      "o"
    ],
    [
      "t",
      "e"
    ],
    [
      "i",
      "l"
    ],
    [
      "c",
      "h"
    ],
    [
      "un",
      "e"
    ],
    [
      "c",
      "i"
    ],
    [
      "on",
      "s"
    ],
    [
      "r",
      "i"
    ],
    [
      "m",
      "a"
    ],
    [
      "r",
      "a"
    ],
    [
      "g",
      "e"
    ],
    [
      "au",
      "t"
    ],
    [
      "pr",
      "o"
    ],
    [
      "c",
      "om"
    ],
    [
      "o",
      "u"
    ],
    [
      "f",
      "i"
    ],
    [
      "r",
      "ti"
    ],
    [
      "m",
      "e"
    ],
    [
      "pr",
      "en"
    ],
    [
      "a",
      "p"
    ],
    [
      "d",
      "é"
    ],
    [
      "é",
      "es"
    ],
    [
      "n",
      "e"
    ],
    [
      "o",
      "ur"
    ],
    [
      "s",
      "e"
    ],
    [
      "in",
      "t"
    ],
    [
      "en",
      "ce"
    ],
    [
      "el",
      "le"
    ],
    [
      "t",
      "é"
    ],
    [
      "s",
      "i"
    ],
    [
      "v",
      "a"
    ],
    [
      "p",
      "e"
    ],
    [
      "p",
      "er"
    ],
    [
      "a",
      "c"
    ],
    [
      "ap",
      "pren"
    ],
    [
      "a",
      "ge"
    ],
    [
      "u",
      "s"
    ],
    [
      "qu",
      "es"
    ],
    [
      "Q",
      "u"
    ],
    [
      "el",
      "li"
    ],
    [
      "d",
      "re"
    ],
    [
      "d",
      "onn"
    ],
    [
      "it",
      "é"
    ],
    [
      "p",
      "l"
    ],
    [
      "om",
      "a"
    ],
    [
      "ti",
      "que"
    ],
    [
      "an",
      "s"
    ],
    [
      "r",
      "es"
    ],
    [
      "e",
      "x"
    ],
    [
      "s",
      "u"
    ],
    [
      "pr",
      "é"
    ],
    [
      "int",
      "elli"
    ],
    [
      "intelli",
      "g"
    ],
    [
      "intellig",
      "ence"
    ],
    [
      "t",
      "re"
    ],
    [
      "donn",
      "ées"
    ],
    [
      "C",
      "om"
    ],
    [
      "t",
      "s"
    ],
    [
      "c",
      "es"
    ],
    [
      "f",
      "or"
    ],
    [
      "s",
      "on"
    ],
    [
      "aut",
      "oma"
    ],
    [
      "me",
      "il"
    ],
    [
      "p",
      "or"
    ],
    [
      "v",
      "e"
    ],
    [
      "a",
      "b"
    ],
    [
      "g",
      "i"
    ],
    [
      "c",
      "ation"
    ],
    [
      "ss",
      "i"
    ],
    [
      "i",
      "e"
    ],
    [
      "é",
      "ri"
    ],
    [
      "le",
      "ur"
    ],
    [
      "a",
      "rti"
    ],
    [
      "arti",
      "fi"
    ],
    [
      "artifi",
      "ci"
    ],
    [
      "artifici",
      "elle"
    ],
    [
      "c",
      "onn"
    ],
    [
      "conn",
      "a"
    ],
    [
      "pa",
      "rti"
    ],
    [
      "Com",
      "ment"
    ],
    [
      "mo",
      "d"
    ],
    [
      "t",
      "es"
    ],
    [
      "p",
      "ons"
    ],
    [
      "é",
      "n"
    ],
    [
      "i",
      "m"
    ],
    [
      "i",
      "re"
    ],
    [
      "t",
      "r"
    ],
    [
      "i",
      "r"
    ],
    [
      "s",
      "é"
    ],
    [
      "u",
      "x"
    ],
    [
      "o",
      "b"
    ],
    [
      "p",
      "o"
    ],
    [
      "t",
      "u"
    ],
    [
      "i",
      "de"
    ],
    [
      "m",
      "et"
    ],
    [
      "U",
      "n"
    ],
    [
      "ré",
      "g"
    ],
    [
      "c",
      "or"
    ],
    [
      "ré",
      "pons"
    ],
    [
      "s",
      "t"
    ],
    [
      "m",
      "es"
    ],
    [
      "un",
      "i"
    ],
    [
      "s",
      "om"
    ],
    [
      "som",
      "meil"
    ],
    [
      "t",
      "an"
    ],
    [
      "s",
      "an"
    ],
    [
      "n",
      "o"
    ],
    [
      "pa",
      "r"
    ],
    [
      "L",
      "es"
    ],
    [
      "s",
      "er"
    ],
    [
      "a",
      "l"
    ],
    [
      "u",
      "ti"
    ],
    [
      "o",
      "p"
    ],
    [
      "c",
      "on"
    ],
    [
      "a",
      "t"
    ],
    [
      "t",
      "en"
    ],
    [
      "pa",
      "ss"
    ],
    [
      "leur",
      "s"
    ],
    [
      "a",
      "ide"
    ],
    [
      "g",
      "r"
    ],
    [
      "per",
      "met"
    ],
    [
      "t",
      "ent"
    ],
    [
      "in",
      "es"
    ],
    [
      "appren",
      "dre"
    ],
    [
      "mod",
      "è"
    ],
    [
      "la",
      "n"
    ],
    [
      "lan",
      "g"
    ],
    [
      "lang",
      "age"
    ],
    [
      "rég",
      "u"
    ],
    [
      "mo",
      "ts"
    ],
    [
      "ch",
      "an"
    ],
    [
      "i",
      "v"
    ],
    [
      "a",
      "li"
    ],
    [
      "g",
      "én"
    ],
    [
      "d",
      "ans"
    ],
    [
      "u",
      "t"
    ],
    [
      "P",
      "our"
    ],
    [
      "qu",
      "o"
    ],
    [
      "im",
      "por"
    ],
    [
      "impor",
      "tan"
    ],
    [
      "c",
      "ons"
    ],
    [
      "a",
      "le"
    ],
    [
      "t",
      "a"
    ],
    [
      "l",
      "o"
    ],
    [
      "lo",
      "gi"
    ],
    [
      "ab",
      "le"
    ],
    [
      "si",
      "ons"
    ],
    [
      "tion",
      "s"
    ],
    [
      "m",
      "ie"
    ],
    [
      "mie",
      "ux"
    ],
    [
      "le",
      "r"
    ],
    [
      "l",
      "is"
    ],
    [
      "automa",
      "ti"
    ],
    [
      "au",
      "ssi"
    ],
    [
      "I",
      "l"
    ],
    [
      "t",
      "est"
    ],
    [
      "pass",
      "e"
    ],
    [
      "c",
      "ti"
    ],
    [
      "au",
      "x"
    ],
    [
      "is",
      "san"
    ],
    [
      "i",
      "en"
    ],
    [
      "j",
      "e"
    ],
    [
      "se",
      "z"
    ],
    [
      "c",
      "is"
    ],
    [
      "qu",
      "i"
    ],
    [
      "p",
      "li"
    ],
    [
      "a",
      "ss"
    ],
    [
      "o",
      "ci"
    ],
    [
      "h",
      "u"
    ],
    [
      "hu",
      "ma"
    ],
    [
      "pren",
      "dre"
    ],
    [
      "te",
      "x"
    ],
    [
      "re",
      "conna"
    ],
    [
      "reconna",
      "î"
    ],
    [
      "reconnaî",
      "tre"
    ],
    [
      "parti",
      "r"
    ],
    [
      "c",
      "tion"
    ],
    [
      "modè",
      "le"
    ],
    [
      "régu",
      "la"
    ],
    [
      "cor",
      "p"
    ],
    [
      "corp",
      "us"
    ],
    [
      "pré",
      "s"
    ],
    [
      "prés",
      "ent"
    ],
    [
      "pl",
      "us"
    ],
    [
      "L",
      "a"
    ],
    [
      "qu",
      "ali"
    ],
    [
      "quali",
      "té"
    ],
    [
      "s",
      "es"
    ],
    [
      "répons",
      "es"
    ],
    [
      "ent",
      "ra"
    ],
    [
      "entra",
      "î"
    ],
    [
      "f",
      "f"
    ],
    [
      "appren",
      "ti"
    ],
    [
      "apprenti",
      "ss"
    ],
    [
      "apprentiss",
      "age"
    ],
    [
      "automa",
      "tique"
    ],
    [
      "gén",
      "é"
    ],
    [
      "géné",
      "ra"
    ],
    [
      "s",
      "y"
    ],
    [
      "è",
      "mes"
    ],
    [
      "uni",
      "que"
    ],
    [
      "r",
      "è"
    ],
    [
      "Pour",
      "quo"
    ],
    [
      "Pourquo",
      "i"
    ],
    [
      "p",
      "our"
    ],
    [
      "L",
      "e"
    ],
    [
      "m",
      "é"
    ],
    [
      "c",
      "u"
    ],
    [
      "n",
      "u"
    ],
    [
      "chan",
      "ge"
    ],
    [
      "change",
      "ment"
    ],
    [
      "c",
      "li"
    ],
    [
      "cli",
      "ma"
    ],
    [
      "fi",
      "cation"
    ],
    [
      "ré",
      "du"
    ],
    [
      "tr",
      "ans"
    ],
    [
      "li",
      "m"
    ],
    [
      "j",
      "et"
    ],
    [
      "jet",
      "s"
    ],
    [
      "a",
      "d"
    ],
    [
      "f",
      "aut"
    ],
    [
      "g",
      "ra"
    ],
    [
      "gra",
      "m"
    ],
    [
      "gram",
      "m"
    ],
    [
      "l",
      "u"
    ],
    [
      "son",
      "t"
    ],
    [
      "for",
      "m"
    ],
    [
      "t",
      "h"
    ],
    [
      "en",
      "ti"
    ],
    [
      "b",
      "u"
    ],
    [
      "pro",
      "du"
    ],
    [
      "p",
      "u"
    ],
    [
      "è",
      "s"
    ],
    [
      "f",
      "a"
    ],
    [
      "el",
      "s"
    ],
    [
      "ation",
      "s"
    ],
    [
      "at",
      "ten"
    ],
    [
      "ser",
      "v"
    ],
    [
      "ma",
      "is"
    ],
    [
      "v",
      "o"
    ],
    [
      "é",
      "du"
    ],
    [
      "conna",
      "issan"
    ],
    [
      "p",
      "éri"
    ],
    [
      "pa",
      "s"
    ],
    [
      "B",
      "on"
    ],
    [
      "Bon",
      "j"
    ],
    [
      "Bonj",
      "our"
    ],
    [
      "com",
      "ment"
    ],
    [
      "va",
      "s"
    ],
    [
      "b",
      "ien"
    ],
    [
      "aide",
      "r"
    ],
    [
      "pré",
      "cis"
    ],
    [
      "précis",
      "e"
    ],
    [
      "ou",
      "pe"
    ],
    [
      "te",
      "ch"
    ],
    [
      "ma",
      "ch"
    ],
    [
      "mach",
      "ines"
    ],
    [
      "t",
      "â"
    ],
    [
      "tâ",
      "ch"
    ],
    [
      "tâch",
      "es"
    ],
    [
      "ass",
      "oci"
    ],
    [
      "huma",
      "in"
    ],
    [
      "com",
      "me"
    ],
    [
      "com",
      "prendre"
    ],
    [
      "tex",
      "te"
    ],
    [
      "i",
      "ma"
    ],
    [
      "g",
      "es"
    ],
    [
      "i",
      "ons"
    ],
    [
      "f",
      "on"
    ],
    [
      "fon",
      "ction"
    ],
    [
      "fonction",
      "ne"
    ],
    [
      "régula",
      "r"
    ],
    [
      "régular",
      "ité"
    ],
    [
      "su",
      "iv"
    ],
    [
      "suiv",
      "re"
    ],
    [
      "te",
      "ment"
    ],
    [
      "a",
      "r"
    ],
    [
      "it",
      "e"
    ],
    [
      "entraî",
      "ne"
    ],
    [
      "entraîne",
      "ment"
    ],
    [
      "Qu",
      "elle"
    ],
    [
      "d",
      "i"
    ],
    [
      "é",
      "r"
    ],
    [
      "sy",
      "st"
    ],
    [
      "syst",
      "èmes"
    ],
    [
      "pl",
      "ut"
    ],
    [
      "plut",
      "ô"
    ],
    [
      "plutô",
      "t"
    ],
    [
      "é",
      "c"
    ],
    [
      "it",
      "es"
    ],
    [
      "c",
      "er"
    ],
    [
      "o",
      "li"
    ],
    [
      "de",
      "r"
    ],
    [
      "s",
      "ou"
    ],
    [
      "parti",
      "ci"
    ],
    [
      "or",
      "m"
    ],
    [
      "on",
      "i"
    ],
    [
      "no",
      "ta"
    ],
    [
      "nota",
      "m"
    ],
    [
      "notam",
      "ment"
    ],
    [
      "b",
      "les"
    ],
    [
      "logi",
      "ques"
    ],
    [
      "h",
      "e"
    ],
    [
      "he",
      "ur"
    ],
    [
      "heur",
      "es"
    ],
    [
      "a",
      "du"
    ],
    [
      "adu",
      "l"
    ],
    [
      "b",
      "es"
    ],
    [
      "bes",
      "o"
    ],
    [
      "beso",
      "in"
    ],
    [
      "en",
      "v"
    ],
    [
      "env",
      "ir"
    ],
    [
      "va",
      "ri"
    ],
    [
      "s",
      "el"
    ],
    [
      "sel",
      "on"
    ],
    [
      "per",
      "s"
    ],
    [
      "pers",
      "onn"
    ],
    [
      "personn",
      "es"
    ],
    [
      "s",
      "a"
    ],
    [
      "d",
      "ur"
    ],
    [
      "clima",
      "tique"
    ],
    [
      "mod",
      "i"
    ],
    [
      "modi",
      "fication"
    ],
    [
      "e",
      "ment"
    ],
    [
      "ac",
      "tu"
    ],
    [
      "le",
      "ment"
    ],
    [
      "m",
      "is"
    ],
    [
      "mis",
      "sions"
    ],
    [
      "g",
      "a"
    ],
    [
      "én",
      "er"
    ],
    [
      "éner",
      "gi"
    ],
    [
      "énergi",
      "es"
    ],
    [
      "f",
      "o"
    ],
    [
      "fo",
      "ssi"
    ],
    [
      "fossi",
      "les"
    ],
    [
      "rédu",
      "ire"
    ],
    [
      "pa",
      "c"
    ],
    [
      "ac",
      "tions"
    ],
    [
      "uti",
      "les"
    ],
    [
      "is",
      "o"
    ],
    [
      "iso",
      "ler"
    ],
    [
      "uti",
      "lis"
    ],
    [
      "t",
      "er"
    ],
    [
      "ment",
      "ation"
    ],
    [
      "en",
      "si"
    ],
    [
      "res",
      "s"
    ],
    [
      "pro",
      "gramm"
    ],
    [
      "dé",
      "v"
    ],
    [
      "dév",
      "el"
    ],
    [
      "dével",
      "op"
    ],
    [
      "pro",
      "b"
    ],
    [
      "prob",
      "l"
    ],
    [
      "cons",
      "tr"
    ],
    [
      "constr",
      "u"
    ],
    [
      "i",
      "dé"
    ],
    [
      "con",
      "c"
    ],
    [
      "P",
      "y"
    ],
    [
      "Py",
      "th"
    ],
    [
      "Pyth",
      "on"
    ],
    [
      "b",
      "le"
    ],
    [
      "c",
      "ri"
    ],
    [
      "n",
      "om"
    ],
    [
      "nom",
      "b"
    ],
    [
      "nomb",
      "re"
    ],
    [
      "pro",
      "jets"
    ],
    [
      "ri",
      "g"
    ],
    [
      "bu",
      "g"
    ],
    [
      "li",
      "re"
    ],
    [
      "er",
      "re"
    ],
    [
      "u",
      "ler"
    ],
    [
      "v",
      "éri"
    ],
    [
      "véri",
      "fi"
    ],
    [
      "a",
      "ve"
    ],
    [
      "ave",
      "c"
    ],
    [
      "pr",
      "ès"
    ],
    [
      "m",
      "p"
    ],
    [
      "A",
      "P"
    ],
    [
      "AP",
      "I"
    ],
    [
      "int",
      "er"
    ],
    [
      "com",
      "m"
    ],
    [
      "comm",
      "uni"
    ],
    [
      "qu",
      "er"
    ],
    [
      "con",
      "t"
    ],
    [
      "f",
      "in"
    ],
    [
      "E",
      "l"
    ],
    [
      "El",
      "le"
    ],
    [
      "atten",
      "du"
    ],
    [
      "sé",
      "c"
    ],
    [
      "séc",
      "ur"
    ],
    [
      "mo",
      "t"
    ],
    [
      "e",
      "z"
    ],
    [
      "tion",
      "n"
    ],
    [
      "cti",
      "ve"
    ],
    [
      "f",
      "ac"
    ],
    [
      "vo",
      "s"
    ],
    [
      "c",
      "o"
    ],
    [
      "test",
      "s"
    ],
    [
      "automati",
      "sé"
    ],
    [
      "automatisé",
      "s"
    ],
    [
      "il",
      "s"
    ],
    [
      "ra",
      "p"
    ],
    [
      "is",
      "ent"
    ],
    [
      "d",
      "o"
    ],
    [
      "ex",
      "pl"
    ],
    [
      "expl",
      "or"
    ],
    [
      "explor",
      "ation"
    ],
    [
      "s",
      "pa"
    ],
    [
      "spa",
      "ti"
    ],
    [
      "spati",
      "ale"
    ],
    [
      "es",
      "pa"
    ],
    [
      "espa",
      "ce"
    ],
    [
      "édu",
      "cation"
    ],
    [
      "connaissan",
      "ces"
    ],
    [
      "ad",
      "ap"
    ],
    [
      "is",
      "sez"
    ],
    [
      "cti",
      "f"
    ],
    [
      "c",
      "la"
    ],
    [
      "pr",
      "es"
    ],
    [
      "ê",
      "tre"
    ],
    [
      "pe",
      "ti"
    ],
    [
      "ob",
      "ten"
    ],
    [
      "re",
      "po"
    ],
    [
      "s",
      "en"
    ],
    [
      "sen",
      "s"
    ],
    [
      "répons",
      "e"
    ],
    [
      "té",
      "e"
    ],
    [
      "ex",
      "péri"
    ],
    [
      "pe",
      "u"
    ],
    [
      "peu",
      "v"
    ],
    [
      "peuv",
      "ent"
    ],
    [
      "el",
      "les"
    ],
    [
      "é",
      "mo"
    ],
    [
      "po",
      "ss"
    ],
    [
      "poss",
      "è"
    ],
    [
      "s",
      "ur"
    ]
  ]
}